function [Y,Xf,Af] = SOM(X,~,~)
%MYNEURALNETWORKFUNCTION neural network simulation function.
%
% Auto-generated by MATLAB, 03-Aug-2021 16:10:05.
%
% [Y] = myNeuralNetworkFunction(X,~,~) takes these arguments:
%
%   X = 1xTS cell, 1 inputs over TS timesteps
%   Each X{1,ts} = Qx4 matrix, input #1 at timestep ts.
%
% and returns:
%   Y = 1xTS cell of 1 outputs over TS timesteps.
%   Each Y{1,ts} = Qx225 matrix, output #1 at timestep ts.
%
% where Q is number of samples (or series) and TS is the number of timesteps.

%#ok<*RPMT0>

% ===== NEURAL NETWORK CONSTANTS =====

% Layer 1
IW1_1 = [0.035421888978354562627 0.10833528823073777791 0.1078039501804712863 0.054497525907096201758;0.044675817071928330959 0.10486531090402159694 0.10837744295058615585 0.053386539582899933398;0.053185629193771156997 0.10083235396694052721 0.10829542413613650609 0.053549267139279418948;0.059533622319256497557 0.097215482593501267861 0.10887650466154102924 0.052377979911829970761;0.066466409140546564571 0.092631092263076822424 0.10852365600859451011 0.053090441864320235543;0.07176060668668866882 0.088586839484299656489 0.10914583664010425734 0.051817211672470345207;0.076587781702731103084 0.084448461127456991848 0.10845900019963009009 0.05322518054069448612;0.081013098584219886411 0.080215788154847311731 0.10823618635478429728 0.053676589395720342157;0.084546182873473735286 0.076485403468556367734 0.10863325790472438959 0.052877086062080858042;0.088101151139688499425 0.072351893209160439424 0.10855368144094340588 0.053030442857430366843;0.093272566103085888245 0.065541701467642682344 0.10859796919636667545 0.052949683566642272159;0.097149809923351052032 0.059643395025871660808 0.10867640287124413767 0.052780339905809679768;0.10216243291809502802 0.050567838225312876366 0.10765604196048451924 0.054828012413137165726;0.10525638279144258758 0.043772457068570233552 0.10869820564551856135 0.052745444730748464179;0.10863898294910002973 0.034515986431759501651 0.10823072995091120863 0.053668755846879724614;0.042646852671097516818 0.10571775900567752238 0.1043302159558130715 0.060907371004433399908;0.049850483982967937202 0.10252025880699379423 0.10494654126737780475 0.059862340995310459046;0.057740810770719512568 0.098297532788898439593 0.10508840853253138825 0.059614877080267955622;0.062854506175611335461 0.095114695022668727109 0.10677473104877067966 0.056540602778492890512;0.066450427733416736475 0.092630058569738688012 0.10476101032983016481 0.060179605330167931787;0.072131031193223477116 0.08827972993979997518 0.10662912319298353814 0.056819470240288563745;0.07669731052211944955 0.084349877935659928196 0.10503540586178516936 0.05969950459514740404;0.08090227214802585276 0.080323011072285691037 0.10539170244974994939 0.059074645514870252616;0.085784479243774525159 0.075080309492362440338 0.1055721833875975374 0.058748596663225426118;0.091186828924179091915 0.068423546719809630323 0.1054187601129052132 0.059018947996544703083;0.095234794081548487799 0.06265882284403505309 0.10599200679197347263 0.057985532693962671402;0.099934199753736768779 0.054840991939166472413 0.10508992777577079447 0.059594937204550862964;0.10428050098711613702 0.046036252615757361495 0.10425658755231520525 0.06106147362875864737;0.10716313691724414781 0.038878821634849861089 0.10492516006328420075 0.059885930631153612425;0.10919180540351597353 0.032775334153165552875 0.10261067818564865994 0.063764406893064062842;0.034008085787264448474 0.10880617110188137153 0.10343246712475082094 0.062410145184167938048;0.046918319620613296861 0.103898529012508678 0.10031080870130865135 0.067332239319504855191;0.053967596857343029526 0.10041275261314389078 0.10220344475341266999 0.064436899500221092585;0.060601926924154857212 0.096564459195816049197 0.1022766890665349343 0.064312794557213934232;0.066431858158505746603 0.092647265988208354903 0.10176735365760185281 0.065121510998765327893;0.07205461505830022817 0.088347257956828073588 0.10255600170566428475 0.063862798011341898041;0.076206080997191102955 0.084791760119911602223 0.10147833420824525774 0.065564706548188952939;0.081465989854400358561 0.079755283645848676355 0.10244202252855504065 0.064053457595902252297;0.085478087308865496885 0.075438997523734466211 0.10187468516497810711 0.064948490489321858421;0.089203797124331490886 0.070998846872386486839 0.10180454410846950797 0.065047037227480591914;0.093301275451673687522 0.065512080788893256589 0.10277425283555795266 0.06350797318417583659;0.097245021158386985016 0.059501911976407112492 0.10212664387404642163 0.064543704562733353325;0.099796499314743658537 0.055115805055448371941 0.10146630611230066099 0.065580869869105939962;0.10506466450029837423 0.044251994901825332518 0.10137096480918687813 0.065729261626642582206;0.10761945699813299515 0.037606700766198229713 0.10084931771232286124 0.066531932863265488831;0.039677555900687798418 0.10687102953552929385 0.099290230880701879634 0.068814223535930182929;0.051130173941809110849 0.10189444969387231876 0.097652494443719858874 0.071129528765674701618;0.056636927104998402438 0.098931889738734193895 0.099127561462482000065 0.069064615984105542923;0.062692423158936652627 0.095219268596572009811 0.098887211313806733237 0.069420157920976541255;0.06862283422548862144 0.091038300868895138951 0.098904907152351645427 0.069391683390860464664;0.073383907656289937282 0.087246401016762856195 0.098724788503248353533 0.069648295337246979297;0.07981476767507088288 0.081405176230694292761 0.099336366046709270727 0.068775845034987612148;0.08396162066501278165 0.077122975603855864479 0.099006604192316882695 0.069247984198341230866;0.087227640342991519251 0.073415834554896253206 0.097997756224543514092 0.070667074520058575926;0.091159285082521079868 0.06846177933964731066 0.099183988005019957379 0.068991118174264079443;0.094696755979895394506 0.063480199236705406318 0.098868581300545599344 0.069439649291414981547;0.098031486037059287209 0.058198900151257275393 0.097715576340895810015 0.07105130948328242102;0.10241563423766564256 0.05007561083278404962 0.099947442750457290983 0.067876325554047975408;0.10634113568821845774 0.041079180135785021977 0.09807519598066125055 0.070561296342707094387;0.10918643463480105782 0.032797288992223408433 0.09830677070630117198 0.070217505093234183766;0.032218975661879610539 0.10935576784409188622 0.097515081413477089356 0.071313021460351441738;0.043986364348287322612 0.10516364764854188585 0.094304179686101941016 0.075507797930012540699;0.055296523013517187572 0.099698895998130754315 0.09509685346045994303 0.074524630759557217163;0.061232474074694488719 0.096164030815154205589 0.095104151784518836665 0.074519730566484143619;0.066253635131306248818 0.092781378476589335125 0.095844247560963061194 0.073557558491519528521;0.071350213201514661732 0.088919123223036342085 0.095084333183242802923 0.074540315249102151451;0.075945090381276628144 0.08502472930200090373 0.096004678414106425777 0.073353159182429933383;0.080807389971214921287 0.080420214113385291022 0.096235351058663765045 0.073053007847234230354;0.08481018096921183469 0.0761905551760406613 0.095543077291804834328 0.073951070804759322375;0.088941817451707483322 0.071324808248584226078 0.095144381326178334435 0.074463677497167951591;0.092145636164749050723 0.067131634828516362212 0.094826513648450933003 0.074868659045108754135;0.095819750341547105243 0.061771889547651351315 0.095453720657872262456 0.074072174499421092331;0.10100811071885026915 0.052859377765830752038 0.09580635207430265865 0.073609428542201968404;0.10431093819088331498 0.045992075189128511781 0.095199123508880503786 0.074381626333743358637;0.107315520009046525 0.038442067595542764313 0.094666631887197538742 0.075069738680523134811;0.035260769899898118662 0.10839373240048952307 0.092737487516791436426 0.077417865520903433874;0.051974152349028183984 0.10146166543729046028 0.092526319202886980753 0.077686583498750030885;0.059244475065445514894 0.097402892218689141046 0.091817186796687003114 0.078530761728178702374;0.064272662253815546207 0.094166589648759665976 0.091437525583822995556 0.078971249672378021622;0.068970780839360812386 0.090773788401463453845 0.091270135899483295638 0.079159386882669297014;0.074161112273390561445 0.086588611193041717384 0.092539400768435434164 0.077680856080228302685;0.079204595140363015515 0.082002819843468910399 0.092907355791526147204 0.077236119474191608503;0.08245610765898600536 0.078734613202788863995 0.091910952227583705976 0.078419747136339174043;0.085956077660960097941 0.074894366577455226408 0.092476980497912128487 0.077757557084699613359;0.089843986895095387379 0.07018504246834549043 0.091053898925446491441 0.079409213956215266017;0.094891522750379042606 0.06319171083123160948 0.092102917064440514849 0.07819921625254092068;0.098576736334734793576 0.057279247759158317954 0.092945907299439023408 0.077191893874108241658;0.10168768177564005417 0.051537480793542714275 0.091956056221408649654 0.078367763633878526064;0.10450271856632764589 0.045566303729718059257 0.089647576666408892998 0.080997001207428628855;0.10888717435806806455 0.033758327538418356206 0.089775580927756573613 0.080826419214874156705;0.042207803251532539923 0.10589632464430914771 0.088367142468279466505 0.082381916277261726944;0.048457082355711666999 0.1031915692557992259 0.0889902744685358571 0.081712771661406793933;0.054730522599410455498 0.10000874219960666223 0.088916038519460754985 0.081795138554178997703;0.061759500409851404712 0.095827141864119891324 0.088433014021737588184 0.082327993877974917081;0.066384362963353135689 0.092687878332820411442 0.087416526282927078939 0.083401237475966574775;0.072035501040349766977 0.088365820846889125972 0.087867948821380728597 0.082924915309520355611;0.075866843571296083137 0.085099118721871327975 0.089673560973345056713 0.080971321864061765461;0.079679368773063960485 0.08154723898026307316 0.089065426034177427872 0.081644167115884708208;0.083034275997427076099 0.078122298588128594177 0.088469672919498407171 0.082289769090977654686;0.087001281854009238081 0.073680780135266701891 0.08866941270310944867 0.082071774764587740458;0.092717735249194979663 0.066345459803137663002 0.089689041962352833437 0.080946914045415374606;0.096635409858079585055 0.060491515298722216276 0.08843071472564707769 0.08232978585842004593;0.099067492027368669882 0.056426294167905330368 0.088775533551454649528 0.081952866690543579864;0.10182148445826375016 0.051281239640215754705 0.088026303492874144463 0.082764027988939822822;0.1066284996185211803 0.040326678695197126778 0.090564450643933952501 0.079963055924809178787;0.040529060064341995706 0.1065504753655757697 0.083604064998138674647 0.087217770252129581121;0.047965909192422620522 0.1034240266818918369 0.084000159319496295329 0.086831142342215894558;0.057714493650618897691 0.098318369373205663497 0.086049382030311441505 0.084808284496632177496;0.062564718628385279642 0.095306253174407828954 0.083814064608825789016 0.087017311641212097273;0.069638867925871303366 0.090269762394377200954 0.084072925143787502478 0.08677335009802301935;0.074419573936525471036 0.086370336052799798199 0.085287246324965718114 0.085582247240134606825;0.078159451850006847473 0.083001584877019959907 0.086218788357575182335 0.084641391436838742113;0.081845518133383907133 0.079370170705747256079 0.0858486017322631495 0.085018160026850642108;0.086019481356642377157 0.074819610151890467153 0.085270061612937972373 0.085598758519280643275;0.090309078586048668891 0.069580658883576895768 0.085800558976098770247 0.085061992366815719624;0.094267998481605358441 0.064113281657217038867 0.085133097265135362908 0.085729769420934034962;0.097757639872096777078 0.058650169951840705473 0.084887054389004248933 0.085979272270441914339;0.10125366104204670814 0.052387471062009256795 0.085221681002049853859 0.085647657538195462457;0.10464680138586801572 0.045219393354076785341 0.085310673864081962292 0.085552416486552582131;0.10744598376242373017 0.038091662769606973726 0.085735056509206791775 0.085127536589988506144;0.033429781177060420572 0.10898511447322621615 0.085564148134050888039 0.085275175958372417817;0.044231659293101695252 0.10507237380280390338 0.08022127183195615352 0.090342744943288269543;0.052792509079244737125 0.10104101628129946722 0.083624671119961163646 0.08720067347903329158;0.059301207005673955974 0.097371249973491252883 0.080446468240663149274 0.090136865773893792841;0.067261618703436207301 0.092057364372311156764 0.081711693816453767614 0.089001593730073394473;0.072428745575130612511 0.088039505231182632605 0.081349508046949320361 0.089337631387829616325;0.077071159419881685171 0.08401157605516262894 0.082578477006245251668 0.088197927441755266664;0.080323368279156731608 0.080910284726833092694 0.082624495409243534083 0.088154100611962979417;0.084211721253594898351 0.076852794269861468557 0.082191550520577416616 0.088558465229265539986;0.088118979465955760144 0.07234209182125118931 0.082569742025800987872 0.088203090338296680217;0.092007337035393113589 0.067323064464936605011 0.081090707133562200948 0.089566520233790830607;0.096271831728062237654 0.06105144365938091483 0.081563442829392374112 0.089135586001650390919;0.10015723370068180254 0.054453249046257701238 0.081243946621597493141 0.089422892143412119337;0.10387189515270459084 0.046955947068326786553 0.080559677866838236282 0.090042525214454938176;0.10688702163694394076 0.039628954708862414169 0.08145110826558950301 0.089237050572239601243;0.034368272516219738888 0.10868601229475596814 0.079150920539132627041 0.091276616207111152534;0.049478819402113537185 0.10271022022696082998 0.077622345799762959562 0.092579367590099853613;0.055301047526863378323 0.099700950041726910111 0.079572170533737135445 0.090912981968156100776;0.064155991935450476515 0.094237953004751393027 0.078599733113383279948 0.091761436937848744888;0.06970411617006856686 0.090217678291627009801 0.078188160948760368485 0.092111791237602699822;0.074646429999932567556 0.086176343493448298583 0.078474148390421757937 0.091866251907024534806;0.078267155424570786226 0.082900966800124625822 0.078502510896964070031 0.091842611520089198485;0.081656068834847841953 0.079563029048741962246 0.079187960488670772197 0.091253033833052235591;0.08613731624618044258 0.074687315077844568245 0.078603760043608930652 0.091757113896138442488;0.089626410877905501873 0.070458450246843010167 0.078644394950446311343 0.091720853393748968951;0.09413230134935748894 0.064311988580101120405 0.077957770774452248008 0.092306815551024865019;0.097872832613356677833 0.058457076960851388214 0.0766619469679440807 0.093381677609005939167;0.10116228018051806603 0.052565635012930954362 0.075633739458439430692 0.094208593157277920049;0.10688524848561713199 0.039648745089511126805 0.076956282760020311429 0.093138182558131707434;0.10923030000149375196 0.032644071561193262199 0.081394067126696278969 0.089265369172070563319;0.033610210295012987736 0.10893084451346796149 0.073458196852830101586 0.095910227693588784303;0.040930044995454967216 0.10639698399337160772 0.076218104386895635383 0.093746508359124833265;0.053942217916839139968 0.10043801837714994019 0.074685596113590380085 0.094974165514865316329;0.059338676750284646833 0.097348862282594969542 0.07484231218925264939 0.094838181287489678462;0.064660871602643457678 0.093890367733292456887 0.074757486608749618151 0.094917596183118166375;0.071008509763898344791 0.089188977341727926351 0.074661094771637001588 0.094993885692324739334;0.075558900841576848162 0.08537468319391897098 0.074335287907221270221 0.09524925314638466034;0.079844022185001362057 0.081378233628644366937 0.073537883608001189395 0.095862459535267591226;0.083254008630527953638 0.077891481841788096085 0.075111578299293019212 0.094634466339531722601;0.088156934853840393518 0.072289745588492840267 0.074577568070499922204 0.095058142334924627948;0.092359004136590566736 0.066840978008824700196 0.073297676160907349052 0.096042029632690498198;0.09541987539118210182 0.062392322742422089143 0.073000564352059801876 0.09626880480537974849;0.098767882316358149297 0.056936580701049337161 0.071857302918831023053 0.09712748347788896508;0.10413872424762105062 0.046392607409806191354 0.076207345519964622693 0.093755396211152794428;0.10896396218124394795 0.033520049995591397196 0.075000448225316346251 0.094703692448131773785;0.041026118089648455634 0.1063618459253308085 0.069298611166355064683 0.098955160851370529973;0.04865805593531676021 0.10308270889718601504 0.071694360785580765749 0.09724063212436834247;0.057131278508007934946 0.098645203895071795208 0.069731630189503929218 0.098666693626758991686;0.063253256127404927645 0.094851618722148201002 0.070695376518731520288 0.097973560034338824654;0.06743797764583843446 0.091921582743968999196 0.069038270414707933464 0.099146198447676081589;0.071953628085188084396 0.088430196292366633481 0.070216617359128541409 0.098322134769533497956;0.076846599738131043944 0.084213259799898562696 0.06989895432639404993 0.098550455375080725506;0.082417686038808071758 0.078771158899056531455 0.069361464100505518249 0.098924365997398275296;0.085648983701057446183 0.075248129837705873824 0.07192147798661713276 0.09708477231474325897;0.089350480765614498369 0.070807997717265230841 0.070110093858245264853 0.098395909333617359582;0.093702523895682135469 0.064937548145969997693 0.067996188755396466674 0.099872186365370832495;0.097123371530714944222 0.059710976321228681485 0.068147920739515477351 0.099767444862402229755;0.10264761147475745529 0.049598708097876149925 0.071147402073408777534 0.097649572123350070196;0.10551634777343044114 0.043147365970416538816 0.07161710296582904367 0.097300505916540769302;0.10867146288456172587 0.034420524730417234593 0.067182974780649176716 0.10040424858891547344;0.033414710618536437592 0.10899408151113443299 0.06636686594429005992 0.10093773043253513599;0.045645072174376029317 0.10446298496136623146 0.065423839736906241882 0.10156176489489122938;0.051929862577412111424 0.10149333330929399821 0.065300298331650255546 0.10163834235825447427;0.058066345091312865367 0.098094669339508985817 0.064500624269845194259 0.10215918701369312849;0.066012120754207925799 0.092941888882135378913 0.063247870023995372835 0.10293904298232524341;0.071590437147752469804 0.088724951121665229792 0.065339794859521696524 0.10162949706455109977;0.075826545163633893298 0.085137624245424356473 0.065071520919747424805 0.10179593259921529413;0.079344551837835411434 0.081872423845844893853 0.066574474538886152519 0.10082088097588025322;0.082514591249666105477 0.078661365004952119029 0.063815557738578915226 0.10259116959828352977;0.08660471096780919531 0.074136609181955831493 0.066604997374011293276 0.10080017372863751823;0.091638563635992154044 0.067819081055829844029 0.064982422908431147768 0.10185278839246171556;0.095691664397994535829 0.061974862309837105978 0.063321925837617365485 0.10289420933127542412;0.10063952831255396081 0.053561065318491078713 0.067007667850631766338 0.10052624930723449981;0.1034324152043630124 0.047941668318594171661 0.064621556753642339643 0.10207539520906612485;0.10621925226741012194 0.041402509437617779353 0.065835645247080562537 0.10129466532598450923;0.037690293033205084228 0.10758292670498471877 0.060365434908248354062 0.1046448483054477907;0.043842753539744497293 0.10523456041502093905 0.059375639895705961679 0.10521558776001727065;0.053757383433745233037 0.10053959979380902579 0.05764460858995717335 0.10617145943882856651;0.06044995029198049763 0.096648047602565290148 0.05974723998598584912 0.10500874161585792288;0.068294422636235266322 0.091277776442829722248 0.058455287793422454345 0.10573653366597716985;0.07396446884793754506 0.086755544605297690852 0.059813118684045540885 0.10496650990326057695;0.078456704377697056296 0.082718483956808766533 0.059319371131325016044 0.10524492223285653036;0.082040461510096640563 0.079163106311504111146 0.058790775925874103058 0.10555311067298032979;0.086482627877966927743 0.074279076638459895499 0.057672828872912300369 0.10615895281001659634;0.0890160759751388031 0.071222734286531474979 0.061536856863563638154 0.10397290219495952668;0.09319322713790718915 0.065647520927695948711 0.05863432928615966433 0.1056378296850746662;0.098643655117757633732 0.057143976705690949225 0.061838149018235588628 0.10378871620210457227;0.10173086344363631295 0.051432582820751034103 0.058397874937227547965 0.10576085986425511065;0.10569701678428813918 0.04269468706842106942 0.057955818617053268815 0.10600107490856704173;0.10876367452741163289 0.034122385958958813268 0.060150192542383240646 0.10477489733308474606;0.032433004263060769001 0.10929289522999496853 0.053910558388094879934 0.10810184023935376363;0.040352328828093260438 0.1066055688008050728 0.052278266648365684377 0.10892040583394835274;0.04887678934121252039 0.10298737600295450323 0.053926428367861586888 0.10809949744047936404;0.05710246733616128334 0.098666356468587623763 0.052628083719929635853 0.10874961534428774501;0.063533124402455135038 0.094655620604147450159 0.05360607321006687076 0.10827267274147307774;0.07029242226659923598 0.089747843030073673476 0.053175103740046456013 0.10848043032183961321;0.075390507633605552407 0.085517230078306596952 0.053598480883536775421 0.10827327421505576754;0.079298063016093447986 0.081916421621330656744 0.052864213875866872261 0.10863378500871909149;0.082833591331652675627 0.078333596355145890255 0.053449568493164074934 0.10834668629190927214;0.087017354836394764095 0.073654279853243284637 0.052128444504256132852 0.10899690367777747912;0.09133585377252079196 0.068223344603602978364 0.05310450409990305487 0.10851828222230130994;0.095066639347518619441 0.062920479361786824102 0.053850871270630727705 0.10814696181232262562;0.099308355772801892858 0.055974785631803414265 0.054447448717176369359 0.10783779529674152042;0.10346772820101296508 0.047858123806093354202 0.053950623346367604372 0.10809722237010846446;0.10783937819375147282 0.036865647418507035971 0.052906286774497393588 0.10861297732879543476];

% ===== SIMULATION ========

% Format Input Arguments
isCellX = iscell(X);
if ~isCellX
    X = {X};
end

% Dimensions
TS = size(X,2); % timesteps

% Allocate Outputs
Y = cell(1,TS);

% Time loop
for ts=1:TS
    
    % Input 1
    X{1,ts} = X{1,ts}';
    % no processing
    
    % Layer 1
    z1 = negdist_apply(IW1_1,X{1,ts});
    a1 = compet_apply(z1);
    
    % Output 1
    Y{1,ts} = a1;
    Y{1,ts} = Y{1,ts}';
end

% Final Delay States
Xf = cell(1,0);
Af = cell(1,0);

% Format Output Arguments
if ~isCellX
    Y = cell2mat(Y);
end
end

% ===== MODULE FUNCTIONS ========

% Negative Distance Weight Function
function z = negdist_apply(w,p,~)
[S,R] = size(w);
Q = size(p,2);
if isa(w,'gpuArray')
    z = iNegDistApplyGPU(w,p,R,S,Q);
else
    z = iNegDistApplyCPU(w,p,S,Q);
end
end
function z = iNegDistApplyCPU(w,p,S,Q)
z = zeros(S,Q);
if (Q<S)
    pt = p';
    for q=1:Q
        z(:,q) = sum(bsxfun(@minus,w,pt(q,:)).^2,2);
    end
else
    wt = w';
    for i=1:S
        z(i,:) = sum(bsxfun(@minus,wt(:,i),p).^2,1);
    end
end
z = -sqrt(z);
end

function z = iNegDistApplyGPU(w,p,R,S,Q)
p = reshape(p,1,R,Q);
sd = arrayfun(@iNegDistApplyGPUHelper,w,p);
z = -sqrt(reshape(sum(sd,2),S,Q));
end
function sd = iNegDistApplyGPUHelper(w,p)
sd = (w-p) .^ 2;
end

% Competitive Transfer Function
function a = compet_apply(n,~)
if isempty(n)
    a = n;
else
    [S,Q] = size(n);
    nanInd = any(isnan(n),1);
    a = zeros(S,Q,'like',n);
    [~,maxRows] = max(n,[],1);
    onesInd = maxRows + S*(0:(Q-1));
    a(onesInd) = 1;
    a(:,nanInd) = NaN;
end
end
