function [y1] = myNeuralNetworkFunction(x1)
%MYNEURALNETWORKFUNCTION neural network simulation function.
%
% Auto-generated by MATLAB, 31-May-2021 16:26:59.
%
% [y1] = myNeuralNetworkFunction(x1) takes these arguments:
%   x = 2xQ matrix, input #1
% and returns:
%   y = 100xQ matrix, output #1
% where Q is the number of samples.

%#ok<*RPMT0>

% ===== NEURAL NETWORK CONSTANTS =====

% Layer 1
IW1_1 = [1.6184184461690094281 1.190488329169144599;1.6003689141940362628 0.9004930376550515092;1.3899709771259649571 0.72196129847209555841;1.2479013288799918335 0.62066028802297501521;1.4341666154701731006 0.49840005162771777725;1.2008698317587325199 0.15741776967809839594;1.1909010229913947754 0.062021857557234896796;1.077452783948622983 0.055409671155480101634;1.1069956447415201239 -0.041272424992799386367;1.2130909110896606062 -0.095821111185912410946;1.4751591893511999398 1.3350616615397732367;1.3070767477310070159 1.0104415535579847063;1.1219241616008719387 0.90798178313755906199;1.0691379223033232737 0.55899171201123287744;1.0962029876661989469 0.25689936187325357331;1.0190672095223456406 0.1345805128950862406;1.0085113760006940709 0.055618245806792553088;0.99686933246590925251 -0.019194438724088422332;1.0572651314963259495 -0.13123774040224783777;1.1151389929828403602 -0.21429316145280180583;1.254882548453196911 1.386272006226350717;1.1694194828980781775 1.187373616682529498;1.0514095220686239252 1.0111667295832580393;1.0646445584508075211 0.77996653770552004659;0.85933112275954803838 0.56520233321899426837;0.97633743539262951572 0.29281204290098095111;0.93208402285578628721 0.1394017410560051129;0.91722812666731745601 0.032137236099196692107;0.91313229129981487997 -0.095623137402002261753;0.92455933113567301262 -0.22621470681109917544;1.0588912490867901095 1.3900362976534212933;0.88970368191862381213 1.1095738172532458865;0.91745947960745155569 0.96193161981924690807;0.81951792481351426467 0.79803032381326000078;0.69905395223771771285 0.66576049744003729103;0.88749896698811026052 0.46433567137124859281;0.74763580410495866779 0.10955916278970674604;0.76425180955388138937 -0.028981480375989472631;0.79531139901701242145 -0.14104009979417869713;0.76589937594651968933 -0.24575131549482667759;1.054082383183352789 1.6099904177763417756;0.85922203811540587282 1.2857275757774593306;0.74670870915918907684 1.0302541467497796646;0.55819151898729568728 0.96703203195650733193;0.556486302857601145 0.75136881372410635471;0.66511572271774554999 0.46808545910620125152;0.42922089667502061339 0.33455067422350021067;0.44203075764856086804 0.052320970265201063865;0.51571546061091877444 -0.16158618283743872435;0.48049661936281939933 -0.40567422138901926276;0.80585960696842806605 1.5224661883409087437;0.56683197030679532968 1.1649692987831414825;0.41052327667449683979 1.0573421768377275765;0.35102931381134000466 0.86194160852414891671;0.36627333128971600873 0.67236771569160580508;0.38471754504499977578 0.49191902141595367226;0.22169704180300589536 0.19963786556755822033;0.30172206451805066996 -0.029145070777843264109;0.23310552294524888861 -0.33004056895695799145;0.20728266176697848766 -0.55912498045974001748;0.48771259688196016979 1.4396013359585400071;0.37024026977180357623 1.2433863649431722287;0.17194251084572634292 1.0694024118967733195;0.15514122140475905542 0.93658103797332570295;0.22824463624413468543 0.72999627373719744305;0.18347394415399462253 0.5037564444264601704;0.19931957950731493678 0.34447352728421087864;0.096323323518299003299 0.079597856564404614876;0.086584792131217780398 -0.07488163613172683919;-0.015312289866866966859 -0.43951888880553563466;0.2703361140186146816 1.3863902977725108823;0.089982795349906052884 1.2570011666073670487;-0.044594282724143952112 1.0129175466836206621;0.033742315350173197885 0.89482596483035325985;-0.050943165790253576442 0.75036541383467381117;0.032319325017170448533 0.50595230795987111705;0.046793809147124006131 0.26523079456756254446;-0.036232245252960745829 -0.0051727041263894026069;-0.1401090505728894986 -0.24799203831570881817;-0.31097966660479853251 -0.5434671641494320804;0.11291493621961590232 1.5022343474446517853;-0.14225133816360155392 1.2227000460363697254;-0.2902347119776496065 1.1033821685799749535;-0.24044273185814002414 0.91906072587837095433;-0.19604223178865937127 0.7371670577255564627;-0.16840479341351594078 0.53771962113104698755;-0.12571875453392564181 0.34939972181325706924;-0.18175102450987237757 0.14313288049146161152;-0.1236926592555588067 -0.10241298486546646096;-0.4626563746172558389 -0.36434201821638201313;-0.15397855013070485541 1.4367153426052776677;-0.37083283316208748293 1.336688699920411727;-0.52238093142956443238 1.1599926445955259791;-0.53805166179572583296 0.91491513279319014451;-0.39964829849372007775 0.74769194523622783954;-0.30751046864931641522 0.55164078622576484534;-0.38375072280719368933 0.3628402168290205676;-0.31909778830640356251 0.029749610882097324988;-0.44146218864710706775 -0.12457379311703413449;-0.56655585498039873205 0.086531789389253641054];

% ===== SIMULATION ========

% Input 1
% no processing

% Layer 1
z1 = negdist_apply(IW1_1,x1);
a1 = compet_apply(z1);

% Output 1
y1 = a1;
end

% ===== MODULE FUNCTIONS ========

% Negative Distance Weight Function
function z = negdist_apply(w,p,~)
[S,R] = size(w);
Q = size(p,2);
if isa(w,'gpuArray')
    z = iNegDistApplyGPU(w,p,R,S,Q);
else
    z = iNegDistApplyCPU(w,p,S,Q);
end
end
function z = iNegDistApplyCPU(w,p,S,Q)
z = zeros(S,Q);
if (Q<S)
    pt = p';
    for q=1:Q
        z(:,q) = sum(bsxfun(@minus,w,pt(q,:)).^2,2);
    end
else
    wt = w';
    for i=1:S
        z(i,:) = sum(bsxfun(@minus,wt(:,i),p).^2,1);
    end
end
z = -sqrt(z);
end
function z = iNegDistApplyGPU(w,p,R,S,Q)
p = reshape(p,1,R,Q);
sd = arrayfun(@iNegDistApplyGPUHelper,w,p);
z = -sqrt(reshape(sum(sd,2),S,Q));
end
function sd = iNegDistApplyGPUHelper(w,p)
sd = (w-p) .^ 2;
end

% Competitive Transfer Function
function a = compet_apply(n,~)
if isempty(n)
    a = n;
else
    [S,Q] = size(n);
    nanInd = any(isnan(n),1);
    a = zeros(S,Q,'like',n);
    [~,maxRows] = max(n,[],1);
    onesInd = maxRows + S*(0:(Q-1));
    a(onesInd) = 1;
    a(:,nanInd) = NaN;
end
end
